a
the
di
in
to
e
che
of
and
that
la
I
un
il
è
are
is
i
per
.
you
,
we
una
And
s@@
le
non
s
e,
e.
o
it
--
ed
this
si
in@@
re@@
al
i@@
on
a,
ing
a.
ri@@
was
"@@
for
E
sono
come
t@@
S@@
da
have
b@@
l'@@
ato
e@@
di@@
es
del
o.
with
a@@
o@@
de@@
st@@
con
an
f@@
ar@@
o,
d@@
se
g@@
s,
più
at
do
er@@
:
so
they
-@@
l@@
as
y
s.
be
p@@
it@@
can
?
about
della
what
ate
ci
ano
one
er
ma
questo
u@@
all
So
or
n@@
an@@
en@@
c@@
on@@
not
al@@
M@@
r@@
or@@
v@@
ic@@
y@@
m@@
ha
am@@
i,
A@@
at@@
my
es@@
un@@
ale
D@@
mi
T@@
from
ro@@
h@@
B@@
co@@
our
con@@
se@@
like
y,
ac@@
but
nel
C@@
k@@
per@@
i.
lo
et@@
av@@
pi@@
li@@
gli
pro@@
it's
ap@@
si@@
im@@
P@@
just
people
mo@@
es,
me
w@@
dei
t
The
el@@
very
But
as@@
y.
fi@@
these
era
if
Ma
z@@
ch@@
ho
E@@
es.
by
ti@@
delle
d
ver@@
F@@
pre@@
cosa
to@@
ag@@
N@@
going
ol@@
molto
ra@@
mi@@
po@@
azione
cui
questa
when
had
abbiamo
out
alla
ci@@
O@@
We
because
more
R@@
essere
ad
L@@
for@@
ad@@
ent@@
In
sp@@
perché
."
ere
ati
em@@
H@@
how
get
ando
anche
their
which
vi
so@@
Non
vi@@
ore
he
your
would
sh@@
ata
up
re
were
loro
cre@@
hanno
quando
ec@@
there
par@@
ur@@
de
no@@
who
us@@
lo@@
le@@
La
dell'@@
chi@@
ab@@
zione
'@@
ut@@
bi@@
think
gi@@
col@@
I'm
ica
est@@
G@@
ter@@
ation
min@@
see
ex@@
into
It's
fare
do@@
really
solo
ly
th@@
att@@
1@@
This
persone
sc@@
man@@
us
ti
Il
all@@
car@@
m
su
amente
inter@@
go
where
has
com@@
qu@@
and@@
some
uno
su@@
quello
ing@@
str@@
them
don't
♫
ai
sol@@
ll@@
It
cor@@
then
ul@@
vol@@
ali
d,
actually
dis@@
W@@
n
that's
tutti
will
tutto
k
no
is@@
You
ing.
un'@@
I@@
nella
ing,
K@@
così
bo@@
know
io
could
ent
ono
modo
ant@@
tr@@
ed@@
want
ev@@
fin@@
te
been
ente
pl@@
il@@
make
gen@@
ine
amo
ers
questi
able
anni
other
ità
ò
tu@@
sia
ma@@
ist@@
ne
ori@@
fatto
pa@@
mio
queste
ar
me@@
ico
's
way
far@@
than
"
ess@@
stato
it.
2@@
op@@
A
sta
all'@@
h
ot@@
be@@
È
J@@
pot@@
those
mia
zz@@
dic@@
3@@
endo
Questo
d.
enza
ric@@
om@@
ve@@
ale.
ce
due
cose
V@@
um@@
ally
der@@
something
things
parte
time
en
p
enti
te@@
oc@@
They
ne@@
;
his
first
ment@@
siamo
got
può
ciò
?"
little
chi
we're
br@@
ed.
TED
also
are.
mat@@
e?
ogni
gu@@
ell@@
ve
ed,
prima
bu@@
tra
cer@@
est
ite
ir@@
ari@@
only
ice
ett@@
c'è
fer@@
ity
two
mon@@
er,
fac@@
look
most
go@@
tion
dal
mondo
vo@@
years
we@@
ph@@
int@@
ale,
c
mar@@
ni@@
k,
met@@
ta
even
re,
now
In@@
over
ta@@
os@@
sul
.@@
much
ts
li
Quindi
fo@@
t,
dove
ete
-
cu@@
ori
need
t.
age
gener@@
ina
x@@
kind
ous
here
back
acc@@
degli
pri@@
are,
thing
take
cont@@
she
gh@@
wh@@
new
st
many
4@@
ven@@
pe@@
ks
ion@@
er.
noi
What
...
quel
world
you're
poi
so,
anno
Se
azioni
lot
its
it,
use
qualcosa
sti@@
ast@@
Talk
sulla
An@@
mor@@
ali@@
ante
g
va
ris@@
port@@
cas@@
L'@@
work
fe@@
re.
ated
mai
end@@
ero
through
pen@@
dov@@
bl@@
said,
there's
'
Subtitles
Transcript:
idea
ical
ic
quella
alle
fic@@
ten@@
son@@
aff@@
anti
uc@@
nostro
ra
ato.
every
E'
form@@
tra@@
pol@@
around
ava
rit@@
right
ora
possiamo
pres@@
gli@@
zi@@
can@@
k.
put
vita
da@@
ici@@
different
they're
l
dalla
gra@@
mo
Now,
ely
her
do,
did
ca@@
ato,
e:
same
vedere
So,
ici
ber@@
ati@@
Qu@@
being
any
cl@@
sione
5@@
zioni
off@@
ancora
St@@
king
sa@@
If
nostra
uto
ser@@
9@@
tras@@
qui
o?
cam@@
fa
are@@
ang@@
pens@@
almente
tri@@
grande
cos@@
good
me,
du@@
ino
speci@@
por@@
called
gente
rel@@
sur@@
suo
10
ds
sua
part@@
eg@@
etto
Sono
ass@@
d'@@
quanto
!
know,
Per
art@@
cent@@
j@@
altro
sen@@
Ho
pr@@
Ci
la@@
sempre
Questa
fl@@
6@@
davvero
arti@@
eva
fu@@
tiv@@
lin@@
zion@@
iti@@
ted
Now
person@@
nell'@@
mag@@
th
erano
Ch@@
ded
pic@@
gg@@
wi@@
ation.
volta
wor@@
I've
doing
so.
ence
mer@@
amento
alt@@
cambi@@
wa@@
bas@@
ari
ding
ation,
ant
U@@
ia
ch
senza
ge@@
sa
co,
ra,
nei
made
ru@@
ou@@
".
tor@@
ide@@
uman@@
own
co.
tempo
0@@
rat@@
possono
down
et
tell
7@@
that,
He
is,
do.
r
olo
dat@@
three
cost@@
possi@@
human
tre
avere
That's
continu@@
tt@@
vit@@
you.
ire
Well,
Abbiamo
sci@@
Si
find
Th@@
cat@@
dopo
diamo
che,
inizi@@
diver@@
proprio
not@@
Le
dire
ssi@@
iamo
se,
gn@@
ai@@
ra.
didn't
Come
nelle
sor@@
tutte
aggio
tipo
quindi
ann@@
ting
pu@@
why
8@@
used
evo
Perché
ativ@@
stata
cap@@
stra@@
rac@@
hi@@
gre@@
ner@@
à
life
qualche
voi
pass@@
anc@@
altri
avano
ever
nostri
val@@
bar@@
dere
me.
leg@@
talk
ak@@
last
percent
reg@@
stre@@
ating
give
anza
after
el
anim@@
wat@@
ary
am
proc@@
lavor@@
à.
b
ly,
ica,
say
import@@
pag@@
sto
started
ther
should
tro@@
he@@
etti
gr@@
bre@@
There
eri@@
ica.
differ@@
test@@
might
far
problem@@
molti
never
spe@@
war@@
cal@@
Thank
ob@@
ss@@
a?
aggi@@
po'
ment
ov@@
ca
day
mostr@@
19@@
enti@@
cit@@
ig@@
aut@@
colo@@
ear@@
ho@@
on,
anti@@
stesso
ito
ran@@
Y@@
evol@@
sic@@
ther@@
Ri@@
Ed
o:
liv@@
we've
negli
oper@@
Quando
inc@@
sap@@
ved@@
200@@
tut@@
de,
ations
sistema
red
,"
,000
mem@@
ying
any@@
Mi
serv@@
materi@@
produc@@
quest@@
storia
can't
lavoro
end
went
ase
deci@@
au@@
circa
5
sal@@
sco@@
mus@@
her@@
sion@@
viene
w
x
ita
ani@@
ance
fine
ki@@
à,
sup@@
compl@@
change
meno
divent@@
den@@
great
mol@@
20
punto
vent@@
big
les
od
dall'@@
tem@@
bisogno
der
low@@
to.
Di@@
ese
sm@@
ative
é
amente,
al,
de.
lu@@
aveva
altre
sit@@
iti
stiamo
still
loc@@
on.
trans@@
costru@@
alizz@@
arriv@@
ey@@
bell@@
50
Wh@@
ali,
design@@
don@@
guar@@
avo
ff@@
ce@@
cur@@
comun@@
ill@@
start
ali.
fil@@
acci@@
ow@@
azione.
came
Un
between
esse
net@@
to,
mentre
plan@@
few
soci@@
ini
bit
funzion@@
each
How
mas@@
found
lasci@@
When
tre@@
enc@@
another
dist@@
that.
ura
ble
uti@@
pren@@
next
ario
fon@@
ren@@
als
show
ano.
part
Con@@
polit@@
problema
ole
ator@@
this.
trov@@
spi@@
h,
up@@
cho@@
That
ente.
over@@
studi@@
ally,
evano
essi@@
miei
fa@@
abi@@
state
using
ini@@
ght@@
body
bor@@
looking
ze
one,
one.
zza
say,
chiam@@
rest@@
bile
comp@@
aiut@@
har@@
itu@@
ort@@
uti
old
zione.
New
en,
less
azione,
4
ke
vo
comes
ion.
no,
capire
men@@
bro@@
does
af@@
voglio
fosse
viv@@
oce@@
Al@@
atti@@
them.
work@@
fr@@
ate,
se.
post@@
potete
ragazz@@
nostre
parl@@
alcuni
legg@@
dar@@
interess@@
dati
fuori
visto
le.
ambi@@
ect
ti,
entr@@
giorno
ante.
ani
comput@@
ion,
anni,
tive
ain@@
air@@
realtà
immagin@@
stanno
posto
ach@@
mu@@
creare
tur@@
al.
wanted
better
ron@@
bra@@
rag@@
ement@@
primo
in,
ked
insegn@@
andare
3
e-@@
ge
cominci@@
innov@@
mal@@
hand@@
fino
act
coll@@
eff@@
dre@@
trying
edi@@
sort
important
pes@@
milioni
Così
inst@@
place
sarebbe
sion
ban@@
Una
off
medi@@
ses
call
’@@
ess
thought
a:
oni
u
quelle
indi@@
succ@@
viol@@
Ecco
ep@@
Because
pos@@
app@@
pas@@
giu@@
anz@@
char@@
an,
30
prov@@
pun@@
us.
always
before
molte
f
momento
esist@@
ità.
All@@
ore,
may
whole
detto
understand
verso
sem@@
Pro@@
time,
pt@@
ions
shi@@
doesn't
lav@@
ings
conosc@@
segu@@
long
this,
allo
volte
ates
nuovo
Ar@@
the@@
avete
cro@@
man
ate.
defin@@
ans
capit@@
stati
computer
",
other@@
econom@@
positi@@
dent@@
dai
fun@@
super@@
imag@@
said
chio
mento
ost@@
ano,
vic@@
ore.
present@@
stor@@
dice
[@@
attraverso
ro
Mar@@
land@@
world.
20@@
ity.
dav@@
dro@@
way,
data
gro@@
connec@@
Av@@
design
try
pp@@
no.
ry
nu@@
tim@@
in.
th,
si.
cell@@
help
micro@@
ere,
bac@@
bambini
us,
working
già
There's
org@@
ere@@
,@@
prendere
ke@@
what's
le,
ento
high@@
some@@
invest@@
plac@@
lun@@
Ora,
qualcuno
acqu@@
inf@@
ene
2
fat@@
ue
forse
uni@@
zione,
ì,
fatt@@
dobbiamo
potrebbe
sost@@
lat@@
pensare
fre@@
ose
fu
social
arsi
bri@@
coming
million
'd
natur@@
societ@@
pi
rete
ste@@
ti.
ute
Lo
ach
happen@@
anni.
Com@@
si,
create
th.
four
credo
necess@@
sper@@
ast
fact,
signific@@
enze
essi
sub@@
ere.
ro,
cri@@
Su@@
e's
tanto
sei
ente,
controll@@
pat@@
Ora
Ma@@
ers,
mondo.
00
ace
program@@
et.
real
oni@@
id@@
cir@@
ful
incredi@@
individu@@
consider@@
visi@@
y?
0,
100
mess@@
took
human@@
stessa
tal@@
nam@@
ity,
grado
here,
na
segn@@
mente
avuto
grandi
agli
secon@@
amb@@
simi@@
enzi@@
thing.
moment@@
dare
ità,
out@@
you,
aver@@
%
love
believe
ati.
ss
et,
ata.
live
fanno
od@@
etti@@
qui@@
sioni
alc@@
nes@@
become
parlare
ola
story
These
pan@@
getting
veramente
Grazie.
enz@@
fam@@
too
pressi@@
atori
donne
bili
oggi
gio@@
cli@@
liber@@
done
I'd
]
My
dir@@
ga@@
ents
quale
siano
forma
seri@@
him
ous@@
stu@@
via
n,
hel@@
7
there.
water
aspett@@
quite
dato
wee@@
ps
let
mo,
perf@@
li,
rec@@
time.
feel
migli@@
dalle
educ@@
abb@@
plo@@
enza.
vari@@
"S@@
sent@@
e."
problem
maybe
m,
Per@@
importante
lead@@
without
ante,
bile.
govern@@
Li@@
guard@@
TED@@
sign@@
tecnologia
prim@@
avevo
colo
esso
Gi@@
ons
brain
trovare
aria
point
eri
mov@@
amo,
unque
colleg@@
fel@@
missi@@
way.
making
altra
ro.
alcune
movi@@
year
women
avamo
penso
ill
ture
pati@@
6
tutta
tion@@
medic@@
co
Quindi,
ard
gam@@
course,
ds,
scri@@
quasi
boo@@
build
every@@
abbastanza
che@@
inten@@
win@@
mett@@
enza,
them,
One
specie
duc@@
dire@@
number
amp@@
sarà
system@@
means
world,
azz@@
invent@@
here.
scienti@@
eng@@
ics
tw@@
coun@@
light
probably
ju@@
um
ved
told
gia
tratt@@
ati,
sk@@
ral
ities
spec@@
Io
azion@@
tto
esper@@
pt
usare
lo.
ina,
plic@@
them@@
now,
five
casa
lui
talking
numero
prof@@
lo,
norm@@
maggior
acqua
sin@@
C'è
dollar@@
aw@@
quali
stand@@
sull'@@
Indi@@
"O@@
en.
insieme
jo@@
out,
ave
ologi@@
dev@@
he's
ei
dow@@
res
environ@@
system
technology
Mo@@
cc@@
ence.
arvi
bene
ol
vengono
menti
mo.
video
univer@@
such
sotto
vist@@
scal@@
get@@
tec@@
lev@@
self
pretty
quattro
care
real@@
inv@@
small
settiman@@
amenti
ack@@
power
contro
ì
Cosa
years,
utt@@
nas@@
agli@@
Era
day,
Ne@@
arci
sist@@
piac@@
pul@@
dit@@
inci@@
list@@
sing@@
raccont@@
sure
po,
atore
problemi
prend@@
tiamo
accad@@
ger@@
well
sui
ione
capi@@
prote@@
I'll
ana
città
form
ure
him@@
riusci@@
allora
tratta
m.
propri@@
atto
15
clas@@
thre@@
giorn@@
mach@@
We're
preci@@
point@@
cresc@@
facendo
ers.
az@@
there,
sulle
o-@@
best
together
condivi@@
Nel
persona
semplic@@
vostro
low
fantast@@
kill@@
bur@@
scor@@
cono
ga
chied@@
ina.
suoi
stat@@
ational
ong
school@@
Par@@
zed
Gli
senti@@
amo.
ask
like,
having
makes
sett@@
secondo
emente
s?
uta
set
olog@@
erà
mettere
ago,
gar@@
sens@@
imp@@
Is@@
Stati
erò
ship
po.
aper@@
st,
across
mort@@
gran@@
svilupp@@
ora,
ette
sta@@
Un@@
des@@
out.
Vi
Le@@
li.
half
metter@@
scel@@
non@@
pazi@@
illu@@
ont@@
ence,
significa
prat@@
son
sue
exp@@
As
Voglio
quelli
mill@@
gioc@@
cervello
ick@@
For
person
elle
Ro@@
global
chang@@
read
writ@@
scar@@
ogg@@
uomo
wo@@
all,
you've
progett@@
bilit@@
Co@@
prossi@@
spieg@@
shar@@
seen
people,
glob@@
Z@@
strut@@
bal@@
lingu@@
face
evamo
ori,
squ@@
ici,
ak
certo
organizz@@
Beh,
tele@@
regi@@
riv@@
comport@@
Quello
esempio,
reste
minut@@
dri@@
servi@@
senso
question
grow@@
esempio
ello
second
living
dello
deve
ener@@
sembr@@
Africa
ettiv@@
ggi@@
descri@@
las@@
read@@
digit@@
Che
vero
Be@@
sum@@
influ@@
vita.
ram@@
facciamo
children
teach@@
ack
wal@@
ly.
osserv@@
ella
.000
remo
kids
media
livello
domanda
industri@@
avevano
an.
All
everything
gruppo
invece
posso
ester@@
vostra
dest@@
durante
star@@
She
costruire
aver
amente.
priv@@
ero@@
cin@@
emo@@
ede
ata,
tar@@
let's
quei
mondo,
put@@
or,
ick
fa,
vedete
di,
gono
sugg@@
ty@@
realizz@@
ve,
uso
civi@@
bir@@
under@@
ement
saw
messo
rem@@
00@@
les@@
away
thinking
economi@@
sequ@@
Why
learn
esi
cia
intellig@@
que
hy@@
head@@
Sap@@
Ter@@
pensi@@
clo@@
ning
age,
great@@
move
iniziato
id
thing,
og@@
qual@@
play
ins
ets
ena
icamente
riguar@@
utilizz@@
up,
almost
ici.
sch@@
stri@@
building
piuttosto
intern@@
ù
life.
'll
tru@@
osc@@
asked
vill@@
accor@@
ghi
troppo
da,
pal@@
situ@@
energia
whether
e'
veni@@
ricor@@
ef@@
robo@@
ors
feel@@
moder@@
appar@@
ei@@
sel@@
pe
CA:
sero
40
società
ament@@
diff@@
agn@@
corso
und@@
bod@@
United
ash@@
progetto
ine,
nor@@
tions
letter@@
ecco
cento
ition
anti.
ish
siete
ine.
000
tran@@
raggiun@@
ché
lit@@
side
vis@@
blo@@
you@@
ricer@@
meglio
g,
up.
possibile
8
atu@@
corr@@
sfi@@
They're
famili@@
robot
hard
single
turn
enough
fact
di.
vu@@
età
Au@@
ricerca
know@@
left
emo
semplicemente
poter
Vi@@
wit@@
larg@@
my@@
ways
ultimi
arono
our@@
ation@@
information
fur@@
9
rappresent@@
med@@
room@@
nello
paes@@
effec@@
under
lì
10@@
Fran@@
—
hom@@
young
Re@@
miglior@@
oi
ic.
today
mean@@
ability
within
appena
ovvi@@
ane
rin@@
hol@@
ve.
lei
room
oro
contr@@
men
bring
rap@@
sembra
ional
example,
oria
base
luc@@
interesting
keep
carb@@
durre
oltre
possa
lungo
while
alist@@
progre@@
biolog@@
oso
sappiamo
ments
piccolo
gest@@
sec@@
preso
esso.
viamo
high
top
s:
respon@@
food
sense
é@@
rà
Gre@@
energy
people.
paesi
ioni
te,
capacità
1
ones
ri
anzi@@
doman@@
pure
♪
dire,
ah@@
tion.
projec@@
money
expl@@
Bi@@
americ@@
scoperto
crit@@
looked
goes
poll@@
tta
Ha
pend@@
dru@@
ucci@@
solu@@
zi
both
pon@@
ext@@
once
abbia
qui,
'è
conto
caso
equi@@
times
Grazie
terri@@
direc@@
ove
asi@@
cambiare
cinque
azien@@
colle@@
public
stori@@
vec@@
cercando
No,
giust@@
glio
ature
ness
esi@@
roc@@
den
school
thin@@
already
looks
ppi@@
comunità
recent@@
schi@@
p.
cle@@
ically
zia
è,
elli
nessuno
uro
tas@@
mean,
zio
open@@
"I
questo.
completamente
lim@@
Go@@
Internet
portare
imento
Poi
avrebbe
reason
science
kin@@
ds.
Pri@@
business
vediamo
as,
ando@@
chiamo
spesso
g.
nuov@@
deb@@
ice,
difficile
fond@@
spac@@
ner
ght,
billion
parti@@
niente
cen@@
macch@@
rispon@@
ich@@
confer@@
work.
simple
successo
ir
nuova
spazio
dio
inside
heard
questo,
elec@@
experi@@
probabilmente
inclu@@
din@@
od.
Sh@@
new@@
often
elettr@@
dur@@
mili@@
chiar@@
miliardi
collabor@@
open
lan@@
dollari
sso
meravigli@@
fem@@
case
selv@@
ment.
gere
stud@@
percent@@
want@@
dott@@
limit@@
bambin@@
veloc@@
Questi
Po@@
tin@@
des
led
happens
diversi
mostra
pur@@
sli@@
all.
ment,
commun@@
test
ben@@
ath@@
graph@@
gl@@
convers@@
ent.
and,
lla
genet@@
comb@@
sid@@
n.
mani@@
So@@
suff@@
informa@@
serve
consu@@
batt@@
fic
years.
objec@@
mano
biso@@
disc@@
O
dol@@
important@@
ow
reas@@
ght.
fiel@@
technolog@@
again,
Mol@@
ame
ord@@
figli@@
sil@@
sort@@
uomini
ms
bad
countries
area
diverse
lavorare
ricon@@
y's
view@@
doc@@
meas@@
anything
tav@@
batter@@
un'altra
Lo@@
art
ber
mark@@
mezzo
appro@@
ice.
book
much.
age.
cul@@
abit@@
fri@@
ter,
p,
ies
country
ys,
compas@@
equ@@
cultu@@
of@@
inform@@
tou@@
wasn't
your@@
ba
causa
peri@@
sapere
applic@@
En@@
this@@
dollars
diventare
pianet@@
picco@@
ito,
luce
enti.
gal@@
D
home
recor@@
sar@@
ries@@
compet@@
evolu@@
impar@@
effici@@
bly
taking
dete
neur@@
etta
princi@@
well,
ic,
ò,
Di
chie@@
c'era
anti,
enor@@
You@@
ys
hor@@
allow@@
altri@@
mini@@
uff@@
cav@@
fir@@
Man@@
ess.
someone
scrit@@
origin@@
atten@@
po
stim@@
six
until
devo
pubblic@@
c'@@
mam@@
turns
ricev@@
salv@@
S
democ@@
à@@
stru@@
future
job@@
happened
basically
caus@@
foto
condi@@
vista
long@@
became
remmo
Nor@@
armi
ath
sing
though
nothing
farlo
quest'@@
OK@@
cio
Oka@@
row@@
ght
think,
completely
torn@@
gir@@
sce
Pot@@
modello
fal@@
Car@@
ad,
discus@@
vivere
impe@@
couple
must
cercare
nuove
comunic@@
complic@@
posti
migliore
straordin@@
fondament@@
incontr@@
ago
ank
kinds
Let's
ory
isn't
Possiamo
learned
Siamo
da.
immagine
persone,
ori.
corpo
oun@@
ep
mean
improv@@
famigli@@
built
abbi@@
iscono
visu@@
cra@@
behavi@@
piace
arlo
termin@@
mie
mes@@
creato
stava
issi@@
Qui
mapp@@
conosci@@
excit@@
sed
DNA
ever@@
Si@@
qualcos@@
exactly
life,
succed@@
auto@@
chiamato
err@@
exist@@
facil@@
idee
abilità
stron@@
0.
qualsiasi
60
space
front
bigg@@
piece
facci@@
qui.
forest@@
porta
otti@@
esperienza
America
princip@@
dovuto
ch,
word
family
dirit@@
Guar@@
cellul@@
sentito
land
fro@@
jour@@
play@@
health
relation@@
l'idea
paio
De@@
Queste
ent,
see,
head
abilit@@
enti,
To@@
prefer@@
cambiamento
knew
possibilità
grazie
anno.
dimension@@
evid@@
cervell@@
fotogra@@
neuro@@
line
shap@@
Amer@@
dd@@
informazioni
figure
order
things.
gets
decided
prodo@@
conce@@
ves
question@@
ward
ot
ined
able.
protec@@
We@@
quell'@@
assi@@
ft
He@@
ghts
rispetto
perce@@
bio@@
ely,
centur@@
pictu@@
sbagli@@
fici
bbero
detto,
bet@@
tot@@
ure@@
organiz@@
tion,
alità
risposta
Ve@@
zo
No@@
ter.
tor
ordin@@
coli
futuro
is.
ess,
remember
piccola
gno
dono
Don@@
lif@@
dia
ascin@@
y-@@
od,
possible
driv@@
then,
rather
ously
couldn't
almente,
pet@@
intro@@
ragazzi
cominciato
storie
divers@@
but@@
hope
thousands
popol@@
Americ@@
compr@@
Cer@@
portato
soff@@
ident@@
work,
right?
semplice
gior@@
migliaia
Pi@@
mette
anno,
let@@
cose.
potere
hai
port
ts,
against
conc@@
serie
oli
Ge@@
course
share
hear@@
effetti
compar@@
scuola
plast@@
imagine
contri@@
studenti
olo@@
ign@@
tipi
experience
created
noi.
vir@@
vor@@
determin@@
anal@@
American
mist@@
ft@@
countr@@
hear
turned
discover@@
G:
V
Unit@@
spar@@
ful@@
num@@
prepar@@
univers@@
Mon@@
stra
basi@@
air
now.
group
you'll
fica
asp@@
conf@@
chiama
scre@@
law@@
chem@@
picture
interest@@
control
scienzi@@
nome
ando.
evit@@
stati@@
radic@@
ico.
crimin@@
bene.
500
seconda
hav@@
sare@@
tura
finanzi@@
aggi
cellule
aci@@
or.
ona
essu@@
18@@
cy@@
liter@@
Credo
ond@@
cerc@@
y:
eve
urb@@
trav@@
sive
aro@@
cou@@
ering
girl@@
since
umento
bbi@@
clu@@
piccoli
lling
collec@@
ered
stuff
Dobbiamo
posi@@
contro@@
mp@@
Bo@@
reli@@
city
self-@@
huge
Ciò
unque,
ma,
citt@@
usa
entire
Afric@@
moment
matter
vi.
milit@@
199@@
ricord@@
esso,
otten@@
ter
India
back@@
stop@@
study
vogliamo
vision@@
tuo
così.
bile,
mangi@@
invol@@
film
identi@@
car
works
lots
adesso
modell@@
ito.
ativo
12
forza
Wi@@
vuole
comm@@
gri@@
here's
tutto,
tan@@
povert@@
a."
pron@@
qualunque
porto
clin@@
ants
number@@
tecnologi@@
modi
isce
lett@@
che.
vita,
fast@@
thou@@
communic@@
issu@@
natural
ped
processo
voc@@
ah,
enomen@@
fe
stop
noi,
produ@@
fatti
vicin@@
maggi@@
guid@@
date
aument@@
sim@@
Pu@@
Internet@@
argu@@
engine@@
iment@@
quad@@
ching
itut@@
gave
resul@@
atura
entu@@
anci@@
giov@@
ia,
ascolt@@
vide@@
diseas@@
guy
ton@@
pensato
separ@@
docu@@
luogo
api@@
as.
scienza
lar@@
cad@@
nucle@@
tivit@@
day.
mental
run
pubblico
poco
te.
ì.
cammin@@
ble.
electr@@
en't
shows
bene,
bene@@
fis@@
multi@@
York
isol@@
class@@
prove
forc@@
gs
model@@
provi@@
ences
ete,
osa
riman@@
ell
key
tempo,
Secon@@
za
gliere
scen@@
conten@@
lau@@
donn@@
show@@
today,
befor@@
answer
neg@@
parol@@
200
inspi@@
fici@@
intell@@
el,
conclu@@
lives
trovato
esattamente
desider@@
impi@@
futu@@
succede
psi@@
persone.
says,
tent@@
centro
rei
animali
sistem@@
hop@@
early
!"
Dov@@
tit@@
macchina
Yor@@
libr@@
vorrei
Da
strada
Europ@@
ele@@
ts.
posed
We've
archit@@
etti,
Pre@@
elo
del@@
nar@@
d-@@
ily
exampl@@
ual
motivo
giorni
gna
istru@@
ace@@
ste
profession@@
embr@@
X@@
Ear@@
maj@@
beautiful
ideas
takes
amazing
sotto@@
l'inter@@
Anche
Mi@@
Har@@
Se@@
als,
happen
noti@@
decision@@
terrori@@
studio
vano
inizio
pir@@
ith
Hanno
futuro@@
care@@
adul@@
matemat@@
well.
somebody
year,
surpri@@
sicure@@
Potete
foll@@
eggi@@
cr@@
ka@@
san@@
audi@@
201@@
ks,
ari,
risor@@
dovrebbe
bbe
natu@@
invit@@
uro@@
based
stories
places
nut@@
posizione
HI@@
vi,
giro
iche
sh
ched
days
nuovi
stessi
cio@@
problems
aggiun@@
visione
zioni.
ismo
fortun@@
Penso
soprav@@
lab@@
sho@@
und,
expec@@
spazi@@
fort@@
imparato
Here's
sts
se:
buona
paese
rebbe
giorno,
prender@@
razione
mare
stare
bom@@
col
mak@@
ort
build@@
obvi@@
process
months
children@@
amin@@
evi
spo@@
Do@@
Lu@@
students
ks.
eas@@
taken
shed
essa
ativa
For@@
25
interessante
bit@@
dentro
guer@@
anto
attiv@@
intorno
flu@@
At
valu@@
potuto
capac@@
donna
grav@@
indic@@
ax@@
Ye@@
third
wom@@
Al
guardare
occu@@
malatti@@
ate@@
call@@
able,
during
scientist@@
stamp@@
mi,
responsa@@
saranno
organis@@
consci@@
gent@@
Bra@@
ling
inde@@
what@@
experiment@@
temper@@
fav@@
team
mesi
immagini
go.
To
ices
bloo@@
develop@@
sometimes
ammo
commerci@@
sti
motiv@@
associ@@
ll
A,
"The
black
worked
else
struttura
mut@@
visit@@
om
suon@@
concentr@@
sex@@
sav@@
government
adv@@
chiesto
dagli
diment@@
profon@@
M:
exper@@
ending
believ@@
leave
happ@@
research
local
combin@@
muov@@
dovremmo
o."
ey
ens
project
ance,
start@@
heart
ply
tool@@
particular
A.
vacc@@
zioni,
parole
be,
loo@@
psy@@
example
usci@@
Con
alto
ail@@
bambino
hu@@
full
Then
ezza
infin@@
perchè
matt@@
trac@@
tech@@
least
seeing
simply
behind
governo
metà
potremmo
zzo
erci@@
altro.
opportun@@
arly
tradi@@
pover@@
Bu@@
ottenere
eli@@
fico
manag@@
friend@@
histor@@
compani@@
hand
scritto
prog@@
lavoro.
vin@@
imparare
erebbe
dimen@@
virtu@@
predic@@
structu@@
ally.
zzi
poter@@
ossi@@
primi
umani
gni
large
cibo
natura
anza.
dise@@
Ju@@
cru@@
duce
lik@@
ations,
quick@@
bilità
bast@@
campo
resist@@
tempo.
conserv@@
self,
curr@@
ential
health@@
challeng@@
fish@@
tenere
Bene,
devono
passion@@
tu
Allora
velo@@
ando,
integr@@
aliz@@
ange
pract@@
everybody
fully
fail@@
sistemi
Noi
nat@@
solut@@
l'un@@
amento.
particolare
50@@
foc@@
ention
began
things,
Or
gran
endere
dietro
fest@@
mi.
ind@@
famiglia
nazion@@
Jo@@
ye@@
gh,
dy@@
model
popul@@
eci
Chris
fare.
scuol@@
Ira@@
st.
ay
You're
mind
economic
partic@@
render@@
Tut@@
curi@@
we'll
80
puoi
fa.
web@@
Ni@@
patter@@
und.
ys.
with@@
stuff@@
given
ine@@
avanti
potrebbero
mass@@
at,
bli@@
omi@@
produce
gh
ust
s."
felt
Cor@@
disa@@
z
occhi@@
dimostr@@
emot@@
name
known
l'ho
Tutto
usando
compon@@
C
ultimo
dra@@
needed
it?
infor@@
asse
complet@@
ò@@
essero
parti
ranno
student@@
atmo@@
hold
political
says
certain
opportunità
eter@@
deva
avrei
rispost@@
pla@@
ters
rest
thing@@
Do
successi@@
Pens@@
Ogni
venire
libro
rebbero
Tutti
ragion@@
simul@@
bab@@
right,
instead
cells
close
increas@@
along
ion
sviluppo
differenza
radi@@
busin@@
enorme
poli@@
ping
answ@@
saying
mondi@@
ster@@
som@@
stavo
confron@@
liz@@
cittad@@
quantità
community
Euro@@
hon@@
moving
self.
consi@@
scu@@
tua
idea.
ari.
mul@@
view
tors
ations.
Not
job
controllo
prob@@
centinaia
100@@
scoper@@
Ben@@
lear@@
posit@@
ther,
spent
realized
thought,
divi@@
sanit@@
é,
concer@@
learning
research@@
brought
again
dett@@
ambiente
go,
do?
gioco
zone
ay@@
18
esa
Perch@@
Or@@
copi@@
am,
emer@@
atric@@
bed
atic
Some
changed
words
5,
arrivare
fli@@
difficil@@
merc@@
domin@@
economia
regol@@
0
vogliono
fru@@
fortunat@@
house
right.
planet
everyone
guerra
parola
faccio
circu@@
ee
centr@@
follow@@
row
wards
People
needs
species
today.
non-@@
mercato
Mc@@
Ac@@
ad.
ush@@
rul@@
later,
countri@@
tried
was,
sacco
scher@@
Uno
viaggi@@
all'interno
essimo
esseri
teri@@
crescita
particol@@
proto@@
flo@@
dom
cannot
Gu@@
ci.
chi.
l'in@@
volt@@
bloc@@
11
chi,
conv@@
attac@@
laboratori@@
ade@@
sac@@
hours
they@@
assist@@
rapid@@
Forse
bracci@@
und
dut@@
metri
Ho@@
common
perhaps
year-@@
Alcun@@
convin@@
soluzione
forma@@
periodo
ico,
asci@@
passato
itt@@
sun@@
child
Is
telling
happening
walk
compi@@
imenti
Vol@@
esser@@
superfici@@
usato
source
unds
Well
questione
ingegn@@
anza,
tti@@
sever@@
ago.
wonderful
interested
pay
Dopo
parla
aspetto
tanti
este
world@@
spend
func@@
pubbl@@
infra@@
emi
diventa
Africa,
gel@@
insiem@@
log@@
extra@@
sound
year.
amount
myself
auth@@
sto@@
effic@@
a-@@
almeno
rar@@
ado@@
pianeta
No
jec@@
eco@@
've
ond
als.
ns
difficult
very,
seems
friends
alta
be.
2,
azioni.
lavoro,
tante
stic@@
physic@@
outside
sentire
ecc@@
argo@@
i?
ì@@
oggi,
was@@
bun@@
tow@@
pow@@
there@@
powerful
fatto,
favor@@
sce@@
preoccup@@
deciso
bo
met
buy
agre@@
itive
metri@@
avevamo
chiamata
madre
asc@@
eranno
dor@@
vul@@
pose
grand@@
langu@@
say@@
wonder@@
level
trasform@@
peggi@@
migliori
rifl@@
preced@@
ni
incre@@
trova
emerg@@
action
middle
history
animals
bi
racco@@
anze
ver
fossero
solve
colt@@
cover@@
Ken@@
king,
els
clear@@
divert@@
amento,
loro.
consum@@
pressione
remo@@
element@@
oul@@
bility
phone
seven
peopl@@
arri@@
parlato
lont@@
sco
sapete,
"Non
domande
uri@@
compren@@
attività
lanci@@
anta
pien@@
ster
ush
cost
Here
thes@@
grow
true
know.
other.
fronte
asi
ultima
Our
beg@@
ver,
botto@@
company
tail@@
es?
terms
music
ece
Uniti
US@@
io,
guad@@
alz@@
creati@@
David
ignor@@
Pa@@
Ver@@
fini@@
cresci@@
198@@
carri@@
mis@@
sle@@
talked
longer
sitting
spett@@
disponi@@
tagli@@
zza,
Ric@@
propria
chim@@
"A@@
Perciò
azioni,
run@@
fish
cop@@
climate
architec@@
Pen@@
sangu@@
coinvol@@
perio@@
ario.
occhi
ani,
vere
sul@@
omet@@
amici
quar@@
use,
x,
Earth
dopo,
...@@
pensiamo
tol@@
Chri@@
endo.
volta,
Vo@@
talmente
vicino
dg@@
auti@@
she@@
ught
dou@@
't
avail@@
deal
mother
molec@@
giving
energi@@
auto
pensate
tram@@
altern@@
forme
funziona
ow,
bel
programma
r.
ragione
tic
Ste@@
farmac@@
technologi@@
easi@@
treat@@
they've
lost
woman
He's
potenzi@@
rare
indietro
Google
software
Ness@@
volu@@
consegu@@
frequ@@
sud@@
B:
game
cover
world's
growing
parts
yet
photograph@@
è@@
resto
faccia
là
blu@@
aliment@@
rivolu@@
esplor@@
pad@@
pho@@
mic@@
ton
man,
size
Just
hundreds
alber@@
soldi
pubbli@@
bito
stro
Ger@@
sat@@
cus
Stat@@
World
nego@@
spost@@
Mich@@
e;
Cre@@
rett@@
icip@@
ines
John
rece@@
power@@
brea@@
starting
appear@@
avrebbero
clim@@
valore
chiest@@
San
el.
volevo
hou@@
On@@
plant@@
cancer
popolazione
ades@@
venne
babi@@
vostri
capito
music@@
Immag@@
nemmeno
musica
distribu@@
contin@@
condit@@
ch.
est,
nature
degre@@
mente.
endono
possano
poteva
zza.
dirett@@
rai@@
mou@@
aiutare
misu@@
lob@@
arch@@
fol@@
ance.
personal
path@@
wron@@
sustain@@
guys
uses
On
write
rendere
costo
riuscit@@
detto:
Can@@
Ero
inate
use@@
70
South
achi@@
gives
contest@@
brill@@
assic@@
mori@@
parlando
strali@@
loso@@
nessun
fra@@
sym@@
Chin@@
throu@@
Can
ordinary
questions
wouldn't
understanding
emmo
immediat@@
scrivere
strugg@@
esperi@@
elem@@
mont@@
cause
U.S.
actually,
eight
together,
difference
ently
estrem@@
ben
anno@@
rima@@
arli
compag@@
cose,
pezzo
osi
affron@@
perch@@
caratter@@
succe@@
veder@@
Ph@@
dinosa@@
happy
problem.
What's
main
plain
traff@@
passare
ario,
E,
well@@
lam@@
ving
group@@
ought
’s
access
eremo
guardate
io.
speriment@@
risol@@
accett@@
leader
intu@@
esso@@
situazione
sport@@
ming
at.
responsi@@
Engli@@
quality
universe
né
piano
risolvere
virus
realtà,
rende
vest@@
gas
tradit@@
online
gin@@
insi@@
foot@@
ular
free
type
ù@@
più.
bili.
assolutamente
occup@@
farlo.
performan@@
camp@@
vive
dicono
pit@@
fron@@
padre
more.
ext
ake
ions,
recogni@@
vanno
linea
gram@@
"W@@
int
ining
save
pped
ourselves
orn@@
T
morte
misur@@
cogn@@
e".
cancer@@
sping@@
Univers@@
die
agu@@
ders
ature@@
night
news
past
system.
agri@@
istitu@@
dete,
cosa.
ana,
vers@@
attraver@@
Jam@@
cident@@
ful,
tly
ight
beginning
simpl@@
vede
prodotti
',
ta.
otto
persino
qualità
arte
market@@
ono,
era,
migr@@
diagno@@
figu@@
act@@
ages
realize
resourc@@
termini
strumenti
affrontare
ino.
buon
autom@@
petroli@@
cancro
dà
interpre@@
universo
Afghanist@@
rur@@
chan@@
ned
industr@@
fundament@@
Let
who's
whatever
seem
education
Oggi
glie
endo@@
cic@@
grafi@@
ea
sosteni@@
malattie
fran@@
abile
tell@@
tà
deca@@
desi@@
war
impatto
“@@
1,
video@@
Africa.
cle
creating
benef@@
cut
citiz@@
selves
cell
incredible
won't
Er@@
manu@@
ancor@@
obiettiv@@
pie@@
oggi.
epide@@
Chi@@
ney
eb@@
dge
Brit@@
alg@@
ok
market
four@@
light@@
together.
again.
story.
draw@@
dang@@
orno
dom@@
red@@
zzare
cultura
provare
imo
nessuna
/@@
ble,
step
hospit@@
that?
really,
language
dito
gruppi
etto.
sy@@
Char@@
organi@@
Ber@@
gone
y."
ty
ption
population
neighbor@@
particul@@
genere
strate@@
ino,
paura
ce,
dy
ox@@
themat@@
structure
mone@@
absolut@@
changes
complex
andato
discorso
scoprire
maniera
contra@@
ora.
facile
Cent@@
7,
luo@@
bat@@
pericolo@@
solito
lato
green
actu@@
individual
medical
tells
disse
giorno.
megli@@
son,
ampi@@
figli
sopra
fine,
ficare
usu@@
risultato
gol@@
developing
present
represent@@
opportunity
millions
especially
democrazi@@
umano
It@@
stesse
soprat@@
nav@@
a".
passo
Col@@
national
ing?
orth
dies
Every@@
showed
easy
haven't
salute
Ec@@
sione.
vera
uri
ficio
Californi@@
è:
testa
ani.
partecip@@
sus@@
ground
ings,
image
allow
celebr@@
Vorrei
molto,
vogli@@
loro,
incredibile
giovani
culture
adatt@@
eria
tornare
vero,
ghiacci@@
ink
cent
ness@@
ma.
bilmente
atti
arla
risultati
"M@@
punti
idea,
scale
changing
hun@@
vision
down.
likely
construc@@
wrote
playing
aio
catt@@
attu@@
ssimo
sapete
deser@@
Gr@@
terra
arriva
storia.
eth@@
incor@@
telefon@@
aria.
pac@@
ck@@
que@@
genitori
Ad@@
Inter@@
mun@@
vento
gradu@@
talk,
ut
bill@@
free@@
bey@@
subjec@@
of,
ous.
running
globale
vero.
emissi@@
tecnologie
forni@@
esempi@@
colp@@
magari
superi@@
Così,
realmente
ce.
ci,
Uni@@
meccan@@
osped@@
religi@@
ency
syn@@
physical
wrong
developed
By
knowledge
struc@@
underst@@
nell@@
atter@@
hundre@@
chil@@
mac@@
Ci@@
diag@@
quant@@
svilu@@
dig@@
certa@@
abor@@
eni@@
develo@@
hour@@
attr@@
rou@@
month@@
posta
?@@
begin@@
chall@@
bamb@@
piamo
fter
n't
gover@@
ich
evi@@
ould
esem@@
ili@@
now@@
nost@@
ple
qualc@@
U.@@
mente,
DN@@
itori
tti
più@@
ulti@@
hap@@
thous@@
publi@@
inste@@
ession@@
osp@@
bec@@
hal@@
pian@@
ingu@@
rapi@@
risult@@
ther.
fos@@
Joh@@
cour@@
ybe
grup@@
spon@@
%@@
imes
razi@@
ven
ably
amaz@@
doll@@
bus@@
lon@@
miliar@@
q@@
ome
whe@@
epi@@
net
osci@@
atori@@
remem@@
sourc@@
ken
full@@
enou@@
appe@@
Im@@
lizz@@
tare
Pe@@
scopri@@
uom@@
right@@
risp@@
Goog@@
Q@@
ain
mad@@
heal@@
alth
Dav@@
probabi@@
citi@@
beauti@@
need@@
sull@@
ur
–
buil@@
lor@@
indi,
that@@
etro
sult@@
quell@@
Wor@@
bero
ind
beli@@
$@@
stem
child@@
see@@
giun@@
ile
labor@@
grazi@@
ready
seem@@
arch
S.
P
B
gett@@
They@@
lmente
nov@@
”
:@@
azi@@
discor@@
dell@@
fant@@
ex
obi@@
unqu@@
youn@@
elet@@
anis@@
knowled@@
opl@@
immag@@
reali@@
softw@@
Cos@@
L
won@@
demo@@
X
]@@
sai@@
hum@@
year@@
muc@@
oggi@@
ans@@
ld
ggi
agg@@
tern@@
gn
K
understand@@
nec@@
lea@@
°
Quest@@
ands
thir@@
altr@@
ouldn't
nolo@@
ghi@@
cellu@@
fut@@
&@@
pre
rius@@
litt@@
realt@@
etter
interno
nem@@
distri@@
who@@
q
”@@
stem@@
A:
..@@
;@@
nex@@
Sou@@
midd@@
acco
M
kes
amer@@
ampl@@
pena
R
G
tecnolo@@
sof@@
v
difficul@@
cco
igh@@
canc@@
terr@@
icul@@
photogra@@
phys@@
immedi@@
somet@@
amoun@@
!@@
togra@@
sano
gy
hist@@
nuc@@
cerv@@
ell,
Ever@@
centin@@
setti@@
osa@@
kno@@
sic
sb@@
U
coul@@
ff
assolut@@
beh@@
phy@@
Tran@@
engin@@
N
aia
F
haps
Grazi@@
tto@@
inte@@
esatt@@
signi@@
forman@@
diffici@@
abbast@@
commer@@
peci@@
tuto
nee@@
again@@
recogn@@
parteci@@
♫@@
self@@
acro@@
igli@@
script@@
á@@
worl@@
Y
ppo
’
H
ou
ample
omia
alcun@@
@@@
í@@
indu@@
ced@@
til
petro@@
matem@@
does@@
…
biamo
sopr@@
envi@@
ú
+
)
Afgh@@
á
«@@
attro
led@@
sour@@
utto@@
blem@@
#@@
Ѐ
Let@@
svi@@
betwe@@
Af@@
cun@@
TE@@
plor@@
/
wro@@
@@
Vor@@
omen@@
ö@@
fund@@
sino
Z
ã@@
J
+@@
dren
behav@@
ç@@
ó@@
dispon@@
í
[
toge@@
ause
stain@@
W
É
cele@@
Q
tty
entist@@
ere's
detto@@
anist@@
»
=
Sub@@
exact@@
$
neigh@@
siasi
vie@@
ó
lem
—@@
parte@@
piutto@@
diffic@@
@@
coup@@
=@@
»@@
j
ü@@
alk
°@@
*@@
patto
eccan@@
pub@@
ñ@@
dn't
vidu@@
avigli@@
´@@
Possi@@
econ@@
Dop@@
're
(@@
portun@@
rought
“
at's
especi@@
titles
aliforni@@
ä@@
oft@@
hosp@@
indi
ï@@
♪@@
ë@@
I'@@
–@@
´
rese@@
ā@@
ø@@
4
egn@@
É@@
‘@@
ê@@
Á@@
́@@
arth
*
²@@
^@@
ú@@
²
È@@
`
Dob@@
Ç@@
€@@
́
Å@@
ā
ū@@
ī@@
æ@@
ople
â@@
@@

^
½
¼
`@@
™
İ@@
®
ž@@
ѐ
¼@@
technolo@@
©
bbiamo
‘
û
…@@
€
Ó@@

º@@
ë
―
«
˚
ć
scho@@
#
ø
ï
ć@@
